TRT-8601-EntropyCalibration2
imgs: 3c008912
(Unnamed Layer* 0) [Constant]_output: 3b010a14
onnx::PRelu_1410: 3b010a14
onnx::PRelu_1408: 3b010a14
(Unnamed Layer* 3) [Constant]_output: 3b010a14
onnx::PRelu_1407: 3b010a14
onnx::PRelu_1406: 3b010a14
onnx::PRelu_1405: 3b010a14
onnx::PRelu_1404: 3b010a14
onnx::PRelu_1403: 3b010a14
onnx::PRelu_1402: 3b010a14
onnx::PRelu_1401: 3b010a14
onnx::PRelu_1400: 3b010a14
onnx::PRelu_1399: 3b010a14
onnx::PRelu_1398: 3b010a14
onnx::PRelu_1330: 3b010a14
onnx::PRelu_1328: 3b010a14
onnx::PRelu_1327: 3b010a14
onnx::PRelu_1326: 3b010a14
onnx::PRelu_1325: 3b010a14
onnx::PRelu_1324: 3b010a14
onnx::PRelu_1323: 3b010a14
onnx::PRelu_1322: 3b010a14
onnx::PRelu_1321: 3b010a14
onnx::PRelu_1320: 3b010a14
onnx::PRelu_1319: 3b010a14
onnx::PRelu_1318: 3b010a14
onnx::PRelu_1224: 3b010a14
onnx::PRelu_1222: 3b010a14
onnx::PRelu_1221: 3b010a14
onnx::PRelu_1220: 3b010a14
onnx::PRelu_1219: 3b010a14
onnx::PRelu_1218: 3b010a14
onnx::PRelu_1217: 3b010a14
onnx::PRelu_1216: 3b010a14
onnx::PRelu_1215: 3b010a14
onnx::PRelu_1214: 3b010a14
onnx::PRelu_1434: 3b010a14
onnx::PRelu_1432: 3b010a14
onnx::PRelu_1431: 3b010a14
onnx::PRelu_1430: 3b010a14
onnx::PRelu_1429: 3b010a14
onnx::PRelu_1428: 3b010a14
onnx::PRelu_1427: 3b010a14
onnx::PRelu_1426: 3b010a14
onnx::PRelu_1425: 3b010a14
onnx::PRelu_1424: 3b010a14
onnx::PRelu_1423: 3b010a14
onnx::PRelu_1422: 3b010a14
onnx::PRelu_1354: 3b010a14
onnx::PRelu_1352: 3b010a14
onnx::PRelu_1351: 3b010a14
onnx::PRelu_1350: 3b010a14
onnx::PRelu_1349: 3b010a14
onnx::PRelu_1348: 3b010a14
onnx::PRelu_1347: 3b010a14
onnx::PRelu_1346: 3b010a14
onnx::PRelu_1345: 3b010a14
onnx::PRelu_1344: 3b010a14
onnx::PRelu_1343: 3b010a14
onnx::PRelu_1342: 3b010a14
onnx::PRelu_1248: 3b010a14
onnx::PRelu_1246: 3b010a14
onnx::PRelu_1245: 3b010a14
onnx::PRelu_1244: 3b010a14
onnx::PRelu_1243: 3b010a14
onnx::PRelu_1242: 3b010a14
onnx::PRelu_1241: 3b010a14
onnx::PRelu_1240: 3b010a14
onnx::PRelu_1239: 3b010a14
onnx::PRelu_1238: 3b010a14
onnx::PRelu_1237: 3b010a14
onnx::PRelu_1236: 3b010a14
/Slice_output_0: 3c008912
/Slice_1_output_0: 0
/Slice_2_output_0: 3c008912
(Unnamed Layer* 76) [Shuffle]_output: 0
/Mul_output_0: 0
/Slice_3_output_0: 3c008912
(Unnamed Layer* 80) [Shuffle]_output: 0
/Mul_1_output_0: 0
/Slice_4_output_0: 3c008912
/Slice_5_output_0: 0
/Concat_output_0: 3c008912
/block0/Resize_output_0: 3bfac262
/block0/Resize_1_output_0: 0
(Unnamed Layer* 88) [Shuffle]_output: 3c010a14
/block0/Mul_output_0: 0
(Unnamed Layer* 91) [Shuffle]_output: 3d010a14
/block0/Div_output_0: 0
/block0/Concat_output_0: 3bfac262
/block0/conv0/conv0.0/conv0.0.0/Conv_output_0: 3a46e67e
(Unnamed Layer* 95) [Shuffle]_output: 3b010a14
/block0/conv0/conv0.0/conv0.0.1/PRelu_output_0: 39e04825
/block0/conv0/conv0.1/conv0.1.0/Conv_output_0: 3a0873a2
(Unnamed Layer* 98) [Shuffle]_output: 3b010a14
/block0/conv0/conv0.1/conv0.1.1/PRelu_output_0: 3a046a85
/block0/convblock0/convblock0.0/convblock0.0.0/Conv_output_0: 39a66651
(Unnamed Layer* 101) [Shuffle]_output: 3b010a14
/block0/convblock0/convblock0.0/convblock0.0.1/PRelu_output_0: 38bee595
/block0/convblock0/convblock0.1/convblock0.1.0/Conv_output_0: 39bef372
(Unnamed Layer* 104) [Shuffle]_output: 3b010a14
/block0/convblock0/convblock0.1/convblock0.1.1/PRelu_output_0: 38c83d39
/block0/Add_output_0: 3a22a650
/block0/convblock1/convblock1.0/convblock1.0.0/Conv_output_0: 39df55f5
(Unnamed Layer* 108) [Shuffle]_output: 3b010a14
/block0/convblock1/convblock1.0/convblock1.0.1/PRelu_output_0: 39a8cdd9
/block0/convblock1/convblock1.1/convblock1.1.0/Conv_output_0: 39b932c1
(Unnamed Layer* 111) [Shuffle]_output: 3b010a14
/block0/convblock1/convblock1.1/convblock1.1.1/PRelu_output_0: 3996263e
/block0/Add_1_output_0: 3a406416
/block0/convblock2/convblock2.0/convblock2.0.0/Conv_output_0: 3a0307ff
(Unnamed Layer* 115) [Shuffle]_output: 3b010a14
/block0/convblock2/convblock2.0/convblock2.0.1/PRelu_output_0: 39a64a72
/block0/convblock2/convblock2.1/convblock2.1.0/Conv_output_0: 39b77e4c
(Unnamed Layer* 118) [Shuffle]_output: 3b010a14
/block0/convblock2/convblock2.1/convblock2.1.1/PRelu_output_0: 398f9895
/block0/Add_2_output_0: 3a784d9d
/block0/convblock3/convblock3.0/convblock3.0.0/Conv_output_0: 3a09baa5
(Unnamed Layer* 122) [Shuffle]_output: 3b010a14
/block0/convblock3/convblock3.0/convblock3.0.1/PRelu_output_0: 39a0afff
/block0/convblock3/convblock3.1/convblock3.1.0/Conv_output_0: 3998aaf4
(Unnamed Layer* 125) [Shuffle]_output: 3b010a14
/block0/convblock3/convblock3.1/convblock3.1.1/PRelu_output_0: 3944e60d
/block0/Add_3_output_0: 3a2bab8b
/block0/conv1/conv1.0/ConvTranspose_output_0: 39f62588
(Unnamed Layer* 129) [Shuffle]_output: 3b010a14
/block0/conv1/conv1.1/PRelu_output_0: 39ebe60d
/block0/conv1/conv1.2/ConvTranspose_output_0: 3a93389d
/block0/Resize_2_output_0: 3aa6dba4
(Unnamed Layer* 134) [Shuffle]_output: 3d010a14
/block0/Mul_1_output_0: 3ba6dba4
/block0/conv2/conv2.0/ConvTranspose_output_0: 39f8f9a7
(Unnamed Layer* 137) [Shuffle]_output: 3b010a14
/block0/conv2/conv2.1/PRelu_output_0: 39f8a060
/block0/conv2/conv2.2/ConvTranspose_output_0: 39afa9f0
/block0/Resize_3_output_0: 39bd60c6
/Neg_output_0: 0
/Concat_1_output_0: 3c008912
/Slice_6_output_0: 0
/Slice_7_output_0: 0
/Concat_2_output_0: 0
/block0_1/Resize_output_0: 3bfac262
/block0_1/Resize_1_output_0: 0
(Unnamed Layer* 149) [Shuffle]_output: 3c010a14
/block0_1/Mul_output_0: 0
(Unnamed Layer* 152) [Shuffle]_output: 3d010a14
/block0_1/Div_output_0: 0
/block0_1/Concat_output_0: 3bfac262
/block0/conv0/conv0.0/conv0.0.0_1/Conv_output_0: 3a47a65a
(Unnamed Layer* 156) [Shuffle]_output: 3b010a14
/block0/conv0/conv0.0/conv0.0.1_1/PRelu_output_0: 39e10841
/block0/conv0/conv0.1/conv0.1.0_1/Conv_output_0: 3a151f06
(Unnamed Layer* 159) [Shuffle]_output: 3b010a14
/block0/conv0/conv0.1/conv0.1.1_1/PRelu_output_0: 3989c19d
/block0/convblock0/convblock0.0/convblock0.0.0_1/Conv_output_0: 399d9b52
(Unnamed Layer* 162) [Shuffle]_output: 3b010a14
/block0/convblock0/convblock0.0/convblock0.0.1_1/PRelu_output_0: 395c6ada
/block0/convblock0/convblock0.1/convblock0.1.0_1/Conv_output_0: 39bf7095
(Unnamed Layer* 165) [Shuffle]_output: 3b010a14
/block0/convblock0/convblock0.1/convblock0.1.1_1/PRelu_output_0: 38c8a2ec
/block0_1/Add_output_0: 3a21c21a
/block0/convblock1/convblock1.0/convblock1.0.0_1/Conv_output_0: 39df3af1
(Unnamed Layer* 169) [Shuffle]_output: 3b010a14
/block0/convblock1/convblock1.0/convblock1.0.1_1/PRelu_output_0: 39a8efaf
/block0/convblock1/convblock1.1/convblock1.1.0_1/Conv_output_0: 39b913c9
(Unnamed Layer* 172) [Shuffle]_output: 3b010a14
/block0/convblock1/convblock1.1/convblock1.1.1_1/PRelu_output_0: 398b8e78
/block0_1/Add_1_output_0: 3a406004
/block0/convblock2/convblock2.0/convblock2.0.0_1/Conv_output_0: 3a00787a
(Unnamed Layer* 176) [Shuffle]_output: 3b010a14
/block0/convblock2/convblock2.0/convblock2.0.1_1/PRelu_output_0: 39a63cec
/block0/convblock2/convblock2.1/convblock2.1.0_1/Conv_output_0: 3994e5db
(Unnamed Layer* 179) [Shuffle]_output: 3b010a14
/block0/convblock2/convblock2.1/convblock2.1.1_1/PRelu_output_0: 398f9a59
/block0_1/Add_2_output_0: 3a66dac8
/block0/convblock3/convblock3.0/convblock3.0.0_1/Conv_output_0: 3a09a6fc
(Unnamed Layer* 183) [Shuffle]_output: 3b010a14
/block0/convblock3/convblock3.0/convblock3.0.1_1/PRelu_output_0: 3951a541
/block0/convblock3/convblock3.1/convblock3.1.0_1/Conv_output_0: 39c85b24
(Unnamed Layer* 186) [Shuffle]_output: 3b010a14
/block0/convblock3/convblock3.1/convblock3.1.1_1/PRelu_output_0: 3944c569
/block0_1/Add_3_output_0: 3a2b92bf
/block0/conv1/conv1.0_1/ConvTranspose_output_0: 39fdab52
(Unnamed Layer* 190) [Shuffle]_output: 3b010a14
/block0/conv1/conv1.1_1/PRelu_output_0: 39f22625
/block0/conv1/conv1.2_1/ConvTranspose_output_0: 3a9320ca
/block0_1/Resize_2_output_0: 3aa1c6ad
(Unnamed Layer* 195) [Shuffle]_output: 3d010a14
/block0_1/Mul_1_output_0: 3ba1c6ad
/block0/conv2/conv2.0_1/ConvTranspose_output_0: 39f8d5fe
(Unnamed Layer* 198) [Shuffle]_output: 3b010a14
/block0/conv2/conv2.1_1/PRelu_output_0: 3a000568
/block0/conv2/conv2.2_1/ConvTranspose_output_0: 39afb9e6
/block0_1/Resize_3_output_0: 39a7fefe
/Slice_8_output_0: 3b8d6303
/Slice_9_output_0: 3ba6c3af
/Concat_3_output_0: 3ba1c6ad
/Add_output_0: 3bba991e
(Unnamed Layer* 207) [Shuffle]_output: 3c810a14
/Div_output_0: 3b3a991e
flow_list_0: 3b3a991e
/Neg_1_output_0: 39a7fefe
/Add_2_output_0: 398f968a
(Unnamed Layer* 213) [Shuffle]_output: 3c810a14
/Div_1_output_0: 390f968a
/Add_3_output_0: 390f968a
/Slice_10_output_0: 3b3a991e
(Unnamed Layer* 226) [Constant]_output: 3c010a14
/Expand_output_0: 3c010a14
(Unnamed Layer* 243) [Constant]_output: 3c010a14
/Expand_1_output_0: 3c010a14
/Concat_4_output_0: 3c010a14
/Cast_output_0: 3c010a14
/Slice_11_output_0: 3b3a991e
(Unnamed Layer* 255) [Shuffle]_output: 41213c78
/Div_2_output_0: 36155639
/Slice_12_output_0: 3a5e3219
(Unnamed Layer* 259) [Shuffle]_output: 40b555ea
/Div_3_output_0: 359e1d99
/Concat_5_output_0: 36113337
/Add_4_output_0: 3c021b33
/Transpose_output_0: 3c021b33
/GridSample_output_0: 3c04d1fc
/Slice_13_output_0: 3b1f7e7f
/Slice_14_output_0: 3b1f52fd
(Unnamed Layer* 268) [Shuffle]_output: 41213c78
/Div_4_output_0: 35ff04af
/Slice_15_output_0: 3a5e0c7f
(Unnamed Layer* 272) [Shuffle]_output: 40b555ea
/Div_5_output_0: 359e02d8
/Concat_6_output_0: 35ff4a52
/Add_5_output_0: 3c021b3f
/Transpose_1_output_0: 3c021b3f
/GridSample_1_output_0: 0
/Slice_16_output_0: 3c04d1fc
/Slice_17_output_0: 0
/Concat_7_output_0: 3bf540fd
/block1/Resize_output_0: 3bf6d58a
/block1/Resize_1_output_0: 3b196f4a
(Unnamed Layer* 284) [Shuffle]_output: 3c010a14
/block1/Mul_output_0: 3b196f4a
(Unnamed Layer* 287) [Shuffle]_output: 3c810a14
/block1/Div_output_0: 3a996f4a
/block1/Concat_output_0: 3a924a3a
/block1/conv0/conv0.0/conv0.0.0/Conv_output_0: 3a8ff5f7
(Unnamed Layer* 291) [Shuffle]_output: 3b010a14
/block1/conv0/conv0.0/conv0.0.1/PRelu_output_0: 3a8cfaf1
/block1/conv0/conv0.1/conv0.1.0/Conv_output_0: 3a5a5950
(Unnamed Layer* 294) [Shuffle]_output: 3b010a14
/block1/conv0/conv0.1/conv0.1.1/PRelu_output_0: 3a4f64e2
/block1/convblock0/convblock0.0/convblock0.0.0/Conv_output_0: 3a0a4122
(Unnamed Layer* 297) [Shuffle]_output: 3b010a14
/block1/convblock0/convblock0.0/convblock0.0.1/PRelu_output_0: 39dae069
/block1/convblock0/convblock0.1/convblock0.1.0/Conv_output_0: 39e7868a
(Unnamed Layer* 300) [Shuffle]_output: 3b010a14
/block1/convblock0/convblock0.1/convblock0.1.1/PRelu_output_0: 39b3139a
/block1/Add_output_0: 3a3dc6d8
/block1/convblock1/convblock1.0/convblock1.0.0/Conv_output_0: 3a296d7b
(Unnamed Layer* 304) [Shuffle]_output: 3b010a14
/block1/convblock1/convblock1.0/convblock1.0.1/PRelu_output_0: 3a24cae0
/block1/convblock1/convblock1.1/convblock1.1.0/Conv_output_0: 39c1c69d
(Unnamed Layer* 307) [Shuffle]_output: 3b010a14
/block1/convblock1/convblock1.1/convblock1.1.1/PRelu_output_0: 39a5728d
/block1/Add_1_output_0: 3a46148c
/block1/convblock2/convblock2.0/convblock2.0.0/Conv_output_0: 3a201e66
(Unnamed Layer* 311) [Shuffle]_output: 3b010a14
/block1/convblock2/convblock2.0/convblock2.0.1/PRelu_output_0: 39f99edd
/block1/convblock2/convblock2.1/convblock2.1.0/Conv_output_0: 39e691a2
(Unnamed Layer* 314) [Shuffle]_output: 3b010a14
/block1/convblock2/convblock2.1/convblock2.1.1/PRelu_output_0: 39cc2daa
/block1/Add_2_output_0: 3a6f1f80
/block1/convblock3/convblock3.0/convblock3.0.0/Conv_output_0: 3a3d160f
(Unnamed Layer* 318) [Shuffle]_output: 3b010a14
/block1/convblock3/convblock3.0/convblock3.0.1/PRelu_output_0: 3a3db964
/block1/convblock3/convblock3.1/convblock3.1.0/Conv_output_0: 39faa103
(Unnamed Layer* 321) [Shuffle]_output: 3b010a14
/block1/convblock3/convblock3.1/convblock3.1.1/PRelu_output_0: 39b9c381
/block1/Add_3_output_0: 3ab14b76
/block1/conv1/conv1.0/ConvTranspose_output_0: 3a3f4d72
(Unnamed Layer* 325) [Shuffle]_output: 3b010a14
/block1/conv1/conv1.1/PRelu_output_0: 3a4bff79
/block1/conv1/conv1.2/ConvTranspose_output_0: 3ab4d59d
/block1/Resize_2_output_0: 3aa0082b
(Unnamed Layer* 330) [Shuffle]_output: 3c810a14
/block1/Mul_1_output_0: 3b20082b
/block1/conv2/conv2.0/ConvTranspose_output_0: 3a38c0fd
(Unnamed Layer* 333) [Shuffle]_output: 3b010a14
/block1/conv2/conv2.1/PRelu_output_0: 3a2018c4
/block1/conv2/conv2.2/ConvTranspose_output_0: 3b17fe77
/block1/Resize_3_output_0: 3adcf09b
/Neg_2_output_0: 390f968a
/Concat_8_output_0: 3bf540fd
/Slice_18_output_0: 3b1f7e7f
/Slice_19_output_0: 3b3a991e
/Concat_9_output_0: 3b3a991e
/block1_1/Resize_output_0: 3bf6d58a
/block1_1/Resize_1_output_0: 3b196f4a
(Unnamed Layer* 345) [Shuffle]_output: 3c010a14
/block1_1/Mul_output_0: 3b196f4a
(Unnamed Layer* 348) [Shuffle]_output: 3c810a14
/block1_1/Div_output_0: 3a996f4a
/block1_1/Concat_output_0: 3a924a3a
/block1/conv0/conv0.0/conv0.0.0_1/Conv_output_0: 3a90c20d
(Unnamed Layer* 352) [Shuffle]_output: 3b010a14
/block1/conv0/conv0.0/conv0.0.1_1/PRelu_output_0: 3a8ea16d
/block1/conv0/conv0.1/conv0.1.0_1/Conv_output_0: 3a4cdec4
(Unnamed Layer* 355) [Shuffle]_output: 3b010a14
/block1/conv0/conv0.1/conv0.1.1_1/PRelu_output_0: 3a530930
/block1/convblock0/convblock0.0/convblock0.0.0_1/Conv_output_0: 39df9558
(Unnamed Layer* 358) [Shuffle]_output: 3b010a14
/block1/convblock0/convblock0.0/convblock0.0.1_1/PRelu_output_0: 39d7e854
/block1/convblock0/convblock0.1/convblock0.1.0_1/Conv_output_0: 39dce333
(Unnamed Layer* 361) [Shuffle]_output: 3b010a14
/block1/convblock0/convblock0.1/convblock0.1.1_1/PRelu_output_0: 39f7179d
/block1_1/Add_output_0: 3a3de44a
/block1/convblock1/convblock1.0/convblock1.0.0_1/Conv_output_0: 3a296ef1
(Unnamed Layer* 365) [Shuffle]_output: 3b010a14
/block1/convblock1/convblock1.0/convblock1.0.1_1/PRelu_output_0: 3a05d4f1
/block1/convblock1/convblock1.1/convblock1.1.0_1/Conv_output_0: 39c1cd6c
(Unnamed Layer* 368) [Shuffle]_output: 3b010a14
/block1/convblock1/convblock1.1/convblock1.1.1_1/PRelu_output_0: 39a54f1e
/block1_1/Add_1_output_0: 3a46069a
/block1/convblock2/convblock2.0/convblock2.0.0_1/Conv_output_0: 3a1fcc0f
(Unnamed Layer* 372) [Shuffle]_output: 3b010a14
/block1/convblock2/convblock2.0/convblock2.0.1_1/PRelu_output_0: 39f9f2a7
/block1/convblock2/convblock2.1/convblock2.1.0_1/Conv_output_0: 39f02d2c
(Unnamed Layer* 375) [Shuffle]_output: 3b010a14
/block1/convblock2/convblock2.1/convblock2.1.1_1/PRelu_output_0: 39ae2428
/block1_1/Add_2_output_0: 3a6e4f5d
/block1/convblock3/convblock3.0/convblock3.0.0_1/Conv_output_0: 3a3cc7be
(Unnamed Layer* 379) [Shuffle]_output: 3b010a14
/block1/convblock3/convblock3.0/convblock3.0.1_1/PRelu_output_0: 3a3da8c7
/block1/convblock3/convblock3.1/convblock3.1.0_1/Conv_output_0: 39c1848e
(Unnamed Layer* 382) [Shuffle]_output: 3b010a14
/block1/convblock3/convblock3.1/convblock3.1.1_1/PRelu_output_0: 39be91f6
/block1_1/Add_3_output_0: 3a75b865
/block1/conv1/conv1.0_1/ConvTranspose_output_0: 3a39ab0f
(Unnamed Layer* 386) [Shuffle]_output: 3b010a14
/block1/conv1/conv1.1_1/PRelu_output_0: 3a4c0c7a
/block1/conv1/conv1.2_1/ConvTranspose_output_0: 3ab50af1
/block1_1/Resize_2_output_0: 3a9fb1c1
(Unnamed Layer* 391) [Shuffle]_output: 3c810a14
/block1_1/Mul_1_output_0: 3b1fb1c1
/block1/conv2/conv2.0_1/ConvTranspose_output_0: 3a3a9b5e
(Unnamed Layer* 394) [Shuffle]_output: 3b010a14
/block1/conv2/conv2.1_1/PRelu_output_0: 3a1fe0b9
/block1/conv2/conv2.2_1/ConvTranspose_output_0: 39cc856a
/block1_1/Resize_3_output_0: 3ae6d6f3
/Slice_20_output_0: 3afd84b5
/Slice_21_output_0: 3b2ee939
/Concat_10_output_0: 3b1fb1c1
/Add_6_output_0: 3b5d5357
(Unnamed Layer* 403) [Shuffle]_output: 3c810a14
/Div_6_output_0: 3add5357
flow_list_1: 3a791c68
/Neg_3_output_0: 3ae6d6f3
/Add_8_output_0: 39933208
(Unnamed Layer* 409) [Shuffle]_output: 3c810a14
/Div_7_output_0: 39133208
/Add_9_output_0: 3946a53e
/Slice_22_output_0: 3a791c68
/Slice_23_output_0: 3b6e3dba
(Unnamed Layer* 415) [Shuffle]_output: 41213c78
/Div_8_output_0: 363eaada
/Slice_24_output_0: 3b272208
(Unnamed Layer* 419) [Shuffle]_output: 40b555ea
/Div_9_output_0: 366ddd89
/Concat_11_output_0: 366dfb9c
/Add_10_output_0: 3c138301
/Transpose_2_output_0: 3c138301
/GridSample_2_output_0: 3bf5568e
/Slice_25_output_0: 3a789a75
/Slice_26_output_0: 3b707454
(Unnamed Layer* 428) [Shuffle]_output: 41213c78
/Div_10_output_0: 3640704f
/Slice_27_output_0: 3b249f4a
(Unnamed Layer* 432) [Shuffle]_output: 40b555ea
/Div_11_output_0: 366a4ac7
/Concat_12_output_0: 366e1599
/Add_11_output_0: 3c13830a
/Transpose_3_output_0: 3c13830a
/GridSample_3_output_0: 0
/Slice_28_output_0: 3bf5568e
/Slice_29_output_0: 0
/Concat_13_output_0: 3bf5568e
/block2/Resize_output_0: 3bf5568e
/block2/Resize_1_output_0: 3a791c68
(Unnamed Layer* 444) [Shuffle]_output: 3c010a14
/block2/Mul_output_0: 3a791c68
(Unnamed Layer* 447) [Shuffle]_output: 3c010a14
/block2/Div_output_0: 3a791c68
/block2/Concat_output_0: 3b6c4063
/block2/conv0/conv0.0/conv0.0.0/Conv_output_0: 3b79aa15
(Unnamed Layer* 451) [Shuffle]_output: 3b010a14
/block2/conv0/conv0.0/conv0.0.1/PRelu_output_0: 3b79565f
/block2/conv0/conv0.1/conv0.1.0/Conv_output_0: 3abfbaf8
(Unnamed Layer* 454) [Shuffle]_output: 3b010a14
/block2/conv0/conv0.1/conv0.1.1/PRelu_output_0: 3a9da951
/block2/convblock0/convblock0.0/convblock0.0.0/Conv_output_0: 3a1890ef
(Unnamed Layer* 457) [Shuffle]_output: 3b010a14
/block2/convblock0/convblock0.0/convblock0.0.1/PRelu_output_0: 3a030db8
/block2/convblock0/convblock0.1/convblock0.1.0/Conv_output_0: 39c413ae
(Unnamed Layer* 460) [Shuffle]_output: 3b010a14
/block2/convblock0/convblock0.1/convblock0.1.1/PRelu_output_0: 39a06d28
/block2/Add_output_0: 3ad81d64
/block2/convblock1/convblock1.0/convblock1.0.0/Conv_output_0: 3a5f46ce
(Unnamed Layer* 464) [Shuffle]_output: 3b010a14
/block2/convblock1/convblock1.0/convblock1.0.1/PRelu_output_0: 3a4fa211
/block2/convblock1/convblock1.1/convblock1.1.0/Conv_output_0: 3a154d57
(Unnamed Layer* 467) [Shuffle]_output: 3b010a14
/block2/convblock1/convblock1.1/convblock1.1.1/PRelu_output_0: 3a152397
/block2/Add_1_output_0: 3ae59e5a
/block2/convblock2/convblock2.0/convblock2.0.0/Conv_output_0: 3a1d8086
(Unnamed Layer* 471) [Shuffle]_output: 3b010a14
/block2/convblock2/convblock2.0/convblock2.0.1/PRelu_output_0: 3a3470ba
/block2/convblock2/convblock2.1/convblock2.1.0/Conv_output_0: 3a041e02
(Unnamed Layer* 474) [Shuffle]_output: 3b010a14
/block2/convblock2/convblock2.1/convblock2.1.1/PRelu_output_0: 39dd07a1
/block2/Add_2_output_0: 3ad277c8
/block2/convblock3/convblock3.0/convblock3.0.0/Conv_output_0: 3a5b87b5
(Unnamed Layer* 478) [Shuffle]_output: 3b010a14
/block2/convblock3/convblock3.0/convblock3.0.1/PRelu_output_0: 3a5f93fd
/block2/convblock3/convblock3.1/convblock3.1.0/Conv_output_0: 3a0edd28
(Unnamed Layer* 481) [Shuffle]_output: 3b010a14
/block2/convblock3/convblock3.1/convblock3.1.1/PRelu_output_0: 3a0a8ff0
/block2/Add_3_output_0: 3aee32d4
/block2/conv1/conv1.0/ConvTranspose_output_0: 3a5ee4f4
(Unnamed Layer* 485) [Shuffle]_output: 3b010a14
/block2/conv1/conv1.1/PRelu_output_0: 3a5ee4f4
/block2/conv1/conv1.2/ConvTranspose_output_0: 3a751713
/block2/Resize_2_output_0: 3a751713
/block2/conv2/conv2.0/ConvTranspose_output_0: 3a7c3050
(Unnamed Layer* 490) [Shuffle]_output: 3b010a14
/block2/conv2/conv2.1/PRelu_output_0: 3a41673c
/block2/conv2/conv2.2/ConvTranspose_output_0: 3acfc39c
/block2/Resize_3_output_0: 3acfc39c
/Neg_4_output_0: 3946a53e
/Concat_14_output_0: 3bf5568e
/Slice_30_output_0: 3a789a75
/Slice_31_output_0: 3a791c68
/Concat_15_output_0: 3a791c68
/block2_1/Resize_output_0: 3bf5568e
/block2_1/Resize_1_output_0: 3a791c68
(Unnamed Layer* 502) [Shuffle]_output: 3c010a14
/block2_1/Mul_output_0: 3a791c68
(Unnamed Layer* 505) [Shuffle]_output: 3c010a14
/block2_1/Div_output_0: 3a791c68
/block2_1/Concat_output_0: 3b6c4063
/block2/conv0/conv0.0/conv0.0.0_1/Conv_output_0: 3b794a87
(Unnamed Layer* 509) [Shuffle]_output: 3b010a14
/block2/conv0/conv0.0/conv0.0.1_1/PRelu_output_0: 3b6c00fc
/block2/conv0/conv0.1/conv0.1.0_1/Conv_output_0: 3ab1c2c8
(Unnamed Layer* 512) [Shuffle]_output: 3b010a14
/block2/conv0/conv0.1/conv0.1.1_1/PRelu_output_0: 3ab1c2c8
/block2/convblock0/convblock0.0/convblock0.0.0_1/Conv_output_0: 3a18a6ea
(Unnamed Layer* 515) [Shuffle]_output: 3b010a14
/block2/convblock0/convblock0.0/convblock0.0.1_1/PRelu_output_0: 3a0343bd
/block2/convblock0/convblock0.1/convblock0.1.0_1/Conv_output_0: 39c7b485
(Unnamed Layer* 518) [Shuffle]_output: 3b010a14
/block2/convblock0/convblock0.1/convblock0.1.1_1/PRelu_output_0: 39a0adea
/block2_1/Add_output_0: 3ac4ce54
/block2/convblock1/convblock1.0/convblock1.0.0_1/Conv_output_0: 3a4f9c7e
(Unnamed Layer* 522) [Shuffle]_output: 3b010a14
/block2/convblock1/convblock1.0/convblock1.0.1_1/PRelu_output_0: 3a4f9c7e
/block2/convblock1/convblock1.1/convblock1.1.0_1/Conv_output_0: 3a153a0f
(Unnamed Layer* 525) [Shuffle]_output: 3b010a14
/block2/convblock1/convblock1.1/convblock1.1.1_1/PRelu_output_0: 3a0e0794
/block2_1/Add_1_output_0: 3ad40069
/block2/convblock2/convblock2.0/convblock2.0.0_1/Conv_output_0: 3a1d842c
(Unnamed Layer* 529) [Shuffle]_output: 3b010a14
/block2/convblock2/convblock2.0/convblock2.0.1_1/PRelu_output_0: 3a1cfac3
/block2/convblock2/convblock2.1/convblock2.1.0_1/Conv_output_0: 3a08cb52
(Unnamed Layer* 532) [Shuffle]_output: 3b010a14
/block2/convblock2/convblock2.1/convblock2.1.1_1/PRelu_output_0: 39daf8c8
/block2_1/Add_2_output_0: 3ae2985a
/block2/convblock3/convblock3.0/convblock3.0.0_1/Conv_output_0: 3a5041e7
(Unnamed Layer* 536) [Shuffle]_output: 3b010a14
/block2/convblock3/convblock3.0/convblock3.0.1_1/PRelu_output_0: 3a5f7106
/block2/convblock3/convblock3.1/convblock3.1.0_1/Conv_output_0: 3a02f7a1
(Unnamed Layer* 539) [Shuffle]_output: 3b010a14
/block2/convblock3/convblock3.1/convblock3.1.1_1/PRelu_output_0: 3a0cfb1c
/block2_1/Add_3_output_0: 3aee496f
/block2/conv1/conv1.0_1/ConvTranspose_output_0: 3a5266a2
(Unnamed Layer* 543) [Shuffle]_output: 3b010a14
/block2/conv1/conv1.1_1/PRelu_output_0: 3a5e9d0b
/block2/conv1/conv1.2_1/ConvTranspose_output_0: 3a813a23
/block2_1/Resize_2_output_0: 3a813a23
/block2/conv2/conv2.0_1/ConvTranspose_output_0: 3a7c352a
(Unnamed Layer* 548) [Shuffle]_output: 3b010a14
/block2/conv2/conv2.1_1/PRelu_output_0: 3a43d253
/block2/conv2/conv2.2_1/ConvTranspose_output_0: 3ac39561
/block2_1/Resize_3_output_0: 3ac39561
/Slice_32_output_0: 3a2e5765
/Slice_33_output_0: 3a7e7ae2
/Concat_16_output_0: 3a813a23
/Add_12_output_0: 3ac70c0b
(Unnamed Layer* 557) [Shuffle]_output: 3c810a14
/Div_12_output_0: 3a470c0b
flow_list_2: 3b76833b
/Neg_5_output_0: 3ac39561
/Add_14_output_0: 3a2de644
(Unnamed Layer* 563) [Shuffle]_output: 3c810a14
/Div_13_output_0: 39ade644
/Add_15_output_0: 39abd00c
/Slice_34_output_0: 3b76833b
/Slice_35_output_0: 3b76833b
(Unnamed Layer* 569) [Shuffle]_output: 41213c78
/Div_14_output_0: 36454984
/Slice_36_output_0: 39bbcab9
(Unnamed Layer* 573) [Shuffle]_output: 40b555ea
/Div_15_output_0: 3505a23a
/Concat_17_output_0: 3505717c
/Add_16_output_0: 3c011cf8
/Transpose_4_output_0: 3c011cf8
/GridSample_4_output_0: 3bf6dcfb
/Slice_37_output_0: 3b829f35
/Slice_38_output_0: 3b768c4d
(Unnamed Layer* 582) [Shuffle]_output: 41213c78
/Div_16_output_0: 364550c6
/Slice_39_output_0: 39bb9b6d
(Unnamed Layer* 586) [Shuffle]_output: 40b555ea
/Div_17_output_0: 35058092
/Concat_18_output_0: 35052763
/Add_17_output_0: 3c011cec
/Transpose_5_output_0: 3c011cec
/GridSample_5_output_0: 0
/Sigmoid_output_0: 3b7f4525
/Mul_4_output_0: 3b759e79
(Unnamed Layer* 595) [Shuffle]_output: 3c010a14
/Sub_output_0: 3b7ec172
/Mul_5_output_0: 0
merged_0: 3b759e79
/Sigmoid_1_output_0: 3b7dab79
/Mul_6_output_0: 3b769cf5
(Unnamed Layer* 602) [Shuffle]_output: 3c010a14
/Sub_1_output_0: 3b7d8c0c
/Mul_7_output_0: 0
merged_1: 3b769cf5
mask_list_2: 3b790116
/Mul_8_output_0: 3b7901b7
(Unnamed Layer* 609) [Shuffle]_output: 3c010a14
/Sub_2_output_0: 3b7ac3dd
/Mul_9_output_0: 0
merged_2: 3b7901b7
